010011111110111110111101011111101000100000000000000000000000000000
011011111111000001010010001111000011100000000000000000000000000000
011011111111010100000110011000111011100000000000000000000000000000
011011111111000111010111111010001011100000000000000000000000000000
011011111110110001000110000001001011000000000000000000000000000000
011011111110100000101011111001101010000000000000000000000000000000
011011111111010001101011110110010100100000000000000000000000000000
011011111111010111100101100011101010100000000000000000000000000000
011011111111001100101001001100011100100000000000000000000000000000
011011111111011010010010011001110111100000000000000000000000000000
010011111111010011010011000000000111100000000000000000000000000000
010011111110100110001101111000011000100000000000000000000000000000
010011111110111000100100100110010000100000000000000000000000000000
010011111110111000011011111010101010000000000000000000000000000000
011011111111000010010101011010111011000000000000000000000000000000
010011111111010001001000000011000001000000000000000000000000000000
010011111111011010000001100110110011100000000000000000000000000000
010011111111010011000100000001010111100000000000000000000000000000
010011111110110010011100101000011000000000000000000000000000000000
010011111111001111001000011001010110000000000000000000000000000000
010011111110111101010101001000000111000000000000000000000000000000
010011111110110001100011100110001001000000000000000000000000000000
010011111111010011000111100100111100100000000000000000000000000000
010011111111010111100100011011010101000000000000000000000000000000
010011111111011011001010101110110010100000000000000000000000000000
011011111111000100110101010100101000100000000000000000000000000000
011011111110110110100100001010100101000000000000000000000000000000
010011111111010101100010101111010110100000000000000000000000000000
010011111111011110001001101001000110100000000000000000000000000000
010011111111100001010011010010111011000000000000000000000000000000
010011111110111100010100111100011001100000000000000000000000000000
011011111111001000111001110001011010100000000000000000000000000000
011011111111010110010111111100110111000000000000000000000000000000
011011111111011100100101010101111010100000000000000000000000000000
011011111110110010000100101001000000100000000000000000000000000000
010011111110111100101110001111011111000000000000000000000000000000
011011111111001100001100001110011110100000000000000000000000000000
011011111111100000111010110111100100000000000000000000000000000000
011011111111100010110001111001101111100000000000000000000000000000
011011111111100000101110110101101101100000000000000000000000000000
010011111110110100110000100110111101100000000000000000000000000000
010011111111001110100011010101111000000000000000000000000000000000
010011111110000111110000110001100001100000000000000000000000000000
010011111110111010100111001011110000000000000000000000000000000000
011011111110111010110011101111111101000000000000000000000000000000
010011111101011100011011101010001011100000000000000000000000000000
010011111111010011001011010000000011100000000000000000000000000000
010011111111010111101000010100100001000000000000000000000000000000
010011111111011010100111001110111111100000000000000000000000000000
010011111111000110100011010111001111100000000000000000000000000000
010011111111010101011111000111100111100000000000000000000000000000
010011111111100001101111001100110011100000000000000000000000000000
010011111110010100001101100010001101100000000000000000000000000000
011011111111000111110101011110000101100000000000000000000000000000
011011111111010100010101101100010010000000000000000000000000000000
010011111111100101000000110000110111000000000000000000000000000000
010011111111100100010010110011111000000000000000000000000000000000
010011111111010010101100001010000001000000000000000000000000000000
011011111111001000011011001010011101000000000000000000000000000000
011011111111010101010010001010011010000000000000000000000000000000
010011111111011100100010000011001110100000000000000000000000000000
010011111111100000011001001110000100000000000000000000000000000000
010011111111010010110110011111010101000000000000000000000000000000
011011111110000100101010111111010110100000000000000000000000000000
010011111111001011110111111000110101000000000000000000000000000000
010011111111001011110111001100011001100000000000000000000000000000
010011111111010010001110100100110000000000000000000000000000000000
010011111111001010110111100111101101000000000000000000000000000000
010011111111011110010100010110001000000000000000000000000000000000
010011111111010011011010010111000111100000000000000000000000000000
011011111110111111000101101110010111100000000000000000000000000000
010011111110111000101101101101011001100000000000000000000000000000
010011111110110001110001001100111111000000000000000000000000000000
010011111111010011000000111001111001000000000000000000000000000000
010011111111010110110010011110001111100000000000000000000000000000
010011111110101110000101000100011110100000000000000000000000000000
010011111111001011111110111100001011100000000000000000000000000000
010011111111000110101100000101110011000000000000000000000000000000
010011111110111010101001010001010010100000000000000000000000000000
010011111111010100101000110011101011000000000000000000000000000000
011011111111001111010110010011111000100000000000000000000000000000
010011111110011101110110001010111111000000000000000000000000000000
010011111111010101010011001110111011100000000000000000000000000000
010011111101111010111111010000110110000000000000000000000000000000
010011111111011110000101000110100001100000000000000000000000000000
011011111111010000110001101100111000000000000000000000000000000000
011011111110110110001111110011101011000000000000000000000000000000
010011111110100111001001110110000010000000000000000000000000000000
010011111111010010001110000101001011000000000000000000000000000000
010011111111010100111001011011011110000000000000000000000000000000
011011111111011000111000011110100000100000000000000000000000000000
011011111110011001100000101101111011000000000000000000000000000000
010011111111001011010111010001100100000000000000000000000000000000
010011111111010101110011000110110011100000000000000000000000000000
010011111111100000100111110111111000000000000000000000000000000000
011011111110110000111111011100110000000000000000000000000000000000
010011111110110111000110100110010101100000000000000000000000000000
010011111111001011101110011100111000100000000000000000000000000000
010011111111011011111110001111101010000000000000000000000000000000
010011111111100011111001001111110110000000000000000000000000000000
