010011111111001000001000111100011110000000000000000000000000000000
010011111110110110011001101010100101100000000000000000000000000000
010011111110101001011000111110110111000000000000000000000000000000
010011111111000010010111110001100011100000000000000000000000000000
010011111111010000101011110110110100000000000000000000000000000000
010011111111100001001000100000101111100000000000000000000000000000
010011111111011100011011000111010100000000000000000000000000000000
010011111111011100001111011001101001100000000000000000000000000000
010011111111010001000101010111010001000000000000000000000000000000
010011111110101001110111001001001111000000000000000000000000000000
010011111111011011111010000001000010100000000000000000000000000000
010011111110110001011101110101001011000000000000000000000000000000
010011111111100100110010011100111101000000000000000000000000000000
010011111111011000110010010101111111000000000000000000000000000000
010011111111100010111011011011000100000000000000000000000000000000
010011111111101011101111011110011110100000000000000000000000000000
010011111111100001110110110011000110100000000000000000000000000000
010011111111101000101111110110101011000000000000000000000000000000
010011111110010001000001111010011111100000000000000000000000000000
010011111111000010010101101100000010000000000000000000000000000000
010011111111010100111010000100110001100000000000000000000000000000
011011111110101010110111101100010001100000000000000000000000000000
010011111110110110001110001011100010100000000000000000000000000000
010011111101111100111100101110111110100000000000000000000000000000
010011111111001110101011001100101010100000000000000000000000000000
010011111111010010000111100110100001100000000000000000000000000000
010011111111010111001100001001001000100000000000000000000000000000
011011111111010001111010010001100110000000000000000000000000000000
011011111111001000011110011011100001000000000000000000000000000000
010011111110000110110110110101101101100000000000000000000000000000
011011111111000111111000111101010111000000000000000000000000000000
011011111111001100011001011110100010000000000000000000000000000000
010011111110111101111111101110010010000000000000000000000000000000
010011111110111111000101110101101111000000000000000000000000000000
011011111110101110100010100111011011000000000000000000000000000000
011011111111010000110110101010011010000000000000000000000000000000
010011111111000010110111010011001001000000000000000000000000000000
010011111110101001001001000000010010100000000000000000000000000000
010011111111010110001000010000101000000000000000000000000000000000
010011111111010101000010010111110001100000000000000000000000000000
010011111111010011001000001100000110000000000000000000000000000000
010011111111011000000001011000111111100000000000000000000000000000
010011111111010100001111101100000010100000000000000000000000000000
011011111110110010000000110011010111100000000000000000000000000000
010011111111011110000010110011000111100000000000000000000000000000
010011111111100000010010001110111010000000000000000000000000000000
010011111111001110111111101110101110100000000000000000000000000000
011011111110111100101011011100100010100000000000000000000000000000
011011111110000011001010001001001011000000000000000000000000000000
011011111111000101100011110110011111100000000000000000000000000000
011011111111000010111001111100111010100000000000000000000000000000
010011111111001011011110001000010011000000000000000000000000000000
010011111110111100011010100001110101100000000000000000000000000000
011011111111000101000000011010101100000000000000000000000000000000
011011111111100100101110010010001011000000000000000000000000000000
011011111111100001010101010110111110000000000000000000000000000000
011011111110011111001100100000001011100000000000000000000000000000
011011111110111100010001011000010110000000000000000000000000000000
011011111111000111000000110101001111100000000000000000000000000000
011011111111001010111101100000010010000000000000000000000000000000
010011111111010110000000101100111110000000000000000000000000000000
010011111111000010010010101000011011000000000000000000000000000000
011011111110110000100010101100101111000000000000000000000000000000
011011111111011000000101001011100010000000000000000000000000000000
011011111111010101010100111100000001000000000000000000000000000000
010011111110110000100101001011000110100000000000000000000000000000
011011111110111101110010011010011100100000000000000000000000000000
011011111110100110101101011111110001000000000000000000000000000000
010011111110111101001111100110100001100000000000000000000000000000
010011111110100010101111000000110101100000000000000000000000000000
010011111111000001110001010110001011100000000000000000000000000000
010011111111010110101010100110010000100000000000000000000000000000
011011111111100011100110011000011000000000000000000000000000000000
011011111111001000100011110111100101100000000000000000000000000000
011011111111010010000000101100001010000000000000000000000000000000
011011111111100001010101011101100101000000000000000000000000000000
011011111111010010111011111110000101000000000000000000000000000000
010011111110110111000010101010101010100000000000000000000000000000
011011111111010001000010111110101101000000000000000000000000000000
011011111111000111100010000111011101000000000000000000000000000000
010011111110110011110001110011011100100000000000000000000000000000
011011111111100010100010010100111100000000000000000000000000000000
010011111110111000001010111001101000100000000000000000000000000000
010011111111000010011101010110111000100000000000000000000000000000
011011111111101101110101111001101010000000000000000000000000000000
010011111110110000110011100011000010100000000000000000000000000000
010011111111001011101100001011101111000000000000000000000000000000
011011111111100001101111000110101001000000000000000000000000000000
010011111111001000001111111000011110100000000000000000000000000000
011011111110110000111010111001001010100000000000000000000000000000
011011111111011010001111111110101001000000000000000000000000000000
010011111110010000010100100100101111000000000000000000000000000000
010011111110100101000010010111100011000000000000000000000000000000
011011111111000101011001001011111011000000000000000000000000000000
010011111111010000111010011110010111000000000000000000000000000000
010011111111000111100011011100100110100000000000000000000000000000
010011111111010101100100101000110110000000000000000000000000000000
010011111111001011110101100101100111100000000000000000000000000000
010011111110101001010010100000100111000000000000000000000000000000
010011111111011111100110101010000110000000000000000000000000000000
011011111110110011010110110011001010100000000000000000000000000000
011011111111001100110101010011100011100000000000000000000000000000
010011111111011010101101100010110011000000000000000000000000000000
011011111110111001101010111011101101000000000000000000000000000000
011011111111011011101100011100100110000000000000000000000000000000
010011111111001010111101100010011101000000000000000000000000000000
011011111110110100110001000100010011100000000000000000000000000000
011011111111000111101100110111010000100000000000000000000000000000
010011111110100100101011010011111010000000000000000000000000000000
011011111111000110001001000000110101000000000000000000000000000000
011011111111010101110110001000101011100000000000000000000000000000
010011111110100011010111001000111011000000000000000000000000000000
010011111110110101011000101010011001000000000000000000000000000000
010011111110110111000111011000110011100000000000000000000000000000
011011111110010010011010001011010100000000000000000000000000000000
011011111110011100100010010010111110100000000000000000000000000000
010011111110111110010010010101110101000000000000000000000000000000
010011111111010101100011010000111111000000000000000000000000000000
010011111110010001000100000111000001000000000000000000000000000000
011011111110101111000111000000111100100000000000000000000000000000
010011111111011111011100111001110011000000000000000000000000000000
010011111111000011111111100011100101000000000000000000000000000000
010011111110001010110100111000101010100000000000000000000000000000
010011111111010000011000001111111111100000000000000000000000000000
010011111110110110000001110110001101100000000000000000000000000000
011011111110101000000100101101010000000000000000000000000000000000
010011111111001111100100000011001111000000000000000000000000000000
010011111110111011010100010001110001000000000000000000000000000000
010011111111100000001110001010001001100000000000000000000000000000
010011111111010101101010010101000100100000000000000000000000000000
010011111111001010100010011000111011100000000000000000000000000000
010011111111001001001111100101000111100000000000000000000000000000
011011111111010100001001000110010011000000000000000000000000000000
011011111111000110111100110001011101100000000000000000000000000000
011011111111000100001110100001100000100000000000000000000000000000
010011111111000100010101010100110110100000000000000000000000000000
011011111110000011111010111001110101100000000000000000000000000000
010011111111100011111010100111101111000000000000000000000000000000
011011111110010001100000001100010100000000000000000000000000000000
010011111110111110110110100100010100100000000000000000000000000000
010011111111010011000101111100101100100000000000000000000000000000
011011111111001101110100000000010100000000000000000000000000000000
011011111110110111000100001111111101100000000000000000000000000000
010011111110011100010001111110010001000000000000000000000000000000
