011011111111010111111011010001001000100000000000000000000000000000
010011111111010001001011111111010101000000000000000000000000000000
010011111110101001100000011000001100000000000000000000000000000000
010011111111000101111101010010010001100000000000000000000000000000
010011111110010101100110000011000011100000000000000000000000000000
011011111111010110100010101001010011000000000000000000000000000000
011011111111011111000010111110001111100000000000000000000000000000
010011111111000100001100011011001010100000000000000000000000000000
011011111111010011101100011111001110000000000000000000000000000000
010011111111100001001111110111011100100000000000000000000000000000
011011111111010100100000100011010101100000000000000000000000000000
010011111111100101000010001111101111000000000000000000000000000000
010011111111010010011001111001101010100000000000000000000000000000
010011111111011001100011111011110100100000000000000000000000000000
011011111111010101000001111001111001100000000000000000000000000000
011011111111100110011011101100000011000000000000000000000000000000
011011111111100110011100101100100010100000000000000000000000000000
010011111110101110111001011001010110000000000000000000000000000000
011011111111001111001010010000111100000000000000000000000000000000
010011111111000000000101110111111111100000000000000000000000000000
010011111111000011110100000110110001100000000000000000000000000000
010011111111100000010101001101111100000000000000000000000000000000
011011111111001000110000010100101011100000000000000000000000000000
010011111111011000101100101011010001100000000000000000000000000000
011011111111001000101110000000001100100000000000000000000000000000
011011111111010101010101101101011011100000000000000000000000000000
011011111111101000100011010001100001100000000000000000000000000000
010011111111000101111001010100000111100000000000000000000000000000
011011111111001011110011101011100010000000000000000000000000000000
011011111111010100011010010110011111100000000000000000000000000000
011011111111010011101101001011100110000000000000000000000000000000
011011111111011111011001101001110111100000000000000000000000000000
010011111110110111010110001111110110000000000000000000000000000000
011011111111010110101100111101111110000000000000000000000000000000
011011111111010010100101011000110100000000000000000000000000000000
010011111111001011000010011000010101000000000000000000000000000000
011011111111010100101111011011011010000000000000000000000000000000
010011111111011000010011001110101101000000000000000000000000000000
011011111111010100100100110101000000000000000000000000000000000000
010011111111011110100101111001100100000000000000000000000000000000
010011111110010001101110000110100001000000000000000000000000000000
010011111111010110100101101001010101100000000000000000000000000000
010011111110010001111011000100001111100000000000000000000000000000
011011111110000000100010101111110010100000000000000000000000000000
011011111111001001010000011100110001000000000000000000000000000000
011011111111011011001101110110010011100000000000000000000000000000
011011111111010110101010011010011110000000000000000000000000000000
010011111111000101000001101001101010000000000000000000000000000000
010011111111011011000111010001010010000000000000000000000000000000
011011111111000101010100110100110010100000000000000000000000000000
010011111111100000000001010100001010100000000000000000000000000000
010011111110011011111101101101100000100000000000000000000000000000
011011111111010100101000001111101000100000000000000000000000000000
010011111111001000110111000100110100100000000000000000000000000000
011011111111010111111101011110110011100000000000000000000000000000
010011111111000000010111001001001100000000000000000000000000000000
010011111111000101001111001001110000000000000000000000000000000000
011011111110100110110100001011011000000000000000000000000000000000
011011111111010100101001100011110001000000000000000000000000000000
010011111110010000001100100011101000100000000000000000000000000000
011011111111001011110001111010110100000000000000000000000000000000
010011111111001111101101001010011010100000000000000000000000000000
010011111111011110001011100011111000000000000000000000000000000000
010011111110101000011100001111101100100000000000000000000000000000
011011111111011100001101100110101011000000000000000000000000000000
011011111111000001101001110111011000100000000000000000000000000000
010011111111010001011001100001101011100000000000000000000000000000
010011111111000101110110000110100110100000000000000000000000000000
011011111111000101000101001011011010100000000000000000000000000000
011011111111011000100010001101001101000000000000000000000000000000
010011111110110101101110000000000011000000000000000000000000000000
010011111111010100110011000100011111100000000000000000000000000000
011011111110111100110001001101110111100000000000000000000000000000
011011111111100011011100110001001000000000000000000000000000000000
011011111111011011000001110011101101000000000000000000000000000000
011011111110000000000110101000110000100000000000000000000000000000
010011111111011101010010111000111100100000000000000000000000000000
011011111111011011100110010111011100000000000000000000000000000000
011011111110100100110101110000000001000000000000000000000000000000
011011111111011101000000100111110100100000000000000000000000000000
011011111111101111101000111100010101000000000000000000000000000000
011011111111100000000010100101001111100000000000000000000000000000
011011111111011010111011010111111011100000000000000000000000000000
011011111111010101010010011011010101000000000000000000000000000000
010011111111010110110111111101011101000000000000000000000000000000
011011111110110010010110110101111101100000000000000000000000000000
011011111111011000110101001011011101100000000000000000000000000000
011011111111100001010000010111001001100000000000000000000000000000
010011111111010100100001010010111000100000000000000000000000000000
010011111111011011110011101011101111100000000000000000000000000000
010011111111001111111010000111011110000000000000000000000000000000
011011111111011100110011101110000001100000000000000000000000000000
010011111111010010110000010011010011100000000000000000000000000000
010011111111010000100101100001001001100000000000000000000000000000
011011111111011001101100001000110011000000000000000000000000000000
010011111111001111010010000111100001000000000000000000000000000000
010011111111010100111011101001110100000000000000000000000000000000
011011111111100010011010101110000010100000000000000000000000000000
010011111111010010110100100111101101100000000000000000000000000000
011011111111001110010111010101011101000000000000000000000000000000
011011111110001111111110010000000100100000000000000000000000000000
011011111111100010010110011010011011000000000000000000000000000000
011011111110110000111011111010011111000000000000000000000000000000
010011111111010000100111010011101111100000000000000000000000000000
010011111111010001001010010010000010000000000000000000000000000000
011011111111001000111110000111001011100000000000000000000000000000
011011111110111101101101111111111000000000000000000000000000000000
010011111111100001110000011111100100100000000000000000000000000000
010011111110011101101100000110110000000000000000000000000000000000
010011111111011000010111110010100110100000000000000000000000000000
011011111101110111000010111111010010000000000000000000000000000000
010011111111010110001010010100111111000000000000000000000000000000
011011111111010100111100110011011100000000000000000000000000000000
010011111111010100100011001001000100000000000000000000000000000000
011011111111000000101000110101000111100000000000000000000000000000
010011111111100011000111000111111010000000000000000000000000000000
010011111111011001101000010101110011000000000000000000000000000000
010011111111001001000110110100111000100000000000000000000000000000
011011111110110001101011001000111001100000000000000000000000000000
010011111111001011100110010100010011100000000000000000000000000000
011011111110110001001010100000000100000000000000000000000000000000
010011111110110001111100011111100100000000000000000000000000000000
010011111111100101010010110110010000000000000000000000000000000000
011011111110110010100110010100100000100000000000000000000000000000
011011111111100110100010101101001111100000000000000000000000000000
011011111111011101101110100101111001100000000000000000000000000000
010011111111001000010010011011011101100000000000000000000000000000
010011111110101011000011000010011100000000000000000000000000000000
010011111110100111011111011011011111000000000000000000000000000000
011011111111101110111111010101110100000000000000000000000000000000
010011111111010011000100100110000101000000000000000000000000000000
010011111110100100000110101111011010100000000000000000000000000000
011011111111011110010100100111000100000000000000000000000000000000
011011111111010111110001100111111100100000000000000000000000000000
010011111111011111011010000100011010000000000000000000000000000000
010011111111010001010110100011110000000000000000000000000000000000
010011111111011011011110000001010101100000000000000000000000000000
011011111111100100110010111110001110100000000000000000000000000000
011011111111100101011100010101110001100000000000000000000000000000
010011111110111111101001111001110010000000000000000000000000000000
011011111110111110100010100111100100000000000000000000000000000000
011011111111010001110010010000101001000000000000000000000000000000
010011111111010000110111100111001110000000000000000000000000000000
011011111111011001101100001011001010000000000000000000000000000000
010011111111010110110011000000010011100000000000000000000000000000
011011111111100000100011001100100010100000000000000000000000000000
010011111111010011010100011100011111100000000000000000000000000000
010011111111000101110000110011100001000000000000000000000000000000
010011111110011010110000010011011110000000000000000000000000000000
010011111111001010001111101000111110100000000000000000000000000000
010011111111001101101110111110010010000000000000000000000000000000
010011111111100001110001111101111011000000000000000000000000000000
010011111110110001011110110101001010000000000000000000000000000000
011011111111010110111110010101101011100000000000000000000000000000
010011111111010101000000100001010110100000000000000000000000000000
010011111111010011001001111101100101000000000000000000000000000000
011011111111001111011010000101000011000000000000000000000000000000
010011111111001000001101100011001110000000000000000000000000000000
011011111111000111100000011011011011000000000000000000000000000000
011011111111100001111110000000011001100000000000000000000000000000
011011111111101001111011111010001011000000000000000000000000000000
010011111111011100100100101110000010100000000000000000000000000000
011011111111010101100000001011100110000000000000000000000000000000
010011111111001110000011001111101010000000000000000000000000000000
011011111111010111011100100000010010000000000000000000000000000000
010011111111100010111001010011110000100000000000000000000000000000
010011111111000110101110110110101010000000000000000000000000000000
011011111111011011001101000011010001000000000000000000000000000000
010011111111001011010111010001000100100000000000000000000000000000
011011111111010101101100110010110001000000000000000000000000000000
010011111111011111010011010000110110000000000000000000000000000000
010011111111010000111010011000101001000000000000000000000000000000
011011111111011001101001000000010100100000000000000000000000000000
010011111111000010111111011100100110100000000000000000000000000000
010011111111100000000100011111101011000000000000000000000000000000
011011111110110101101000010000110101000000000000000000000000000000
011011111111000110000010000000111111000000000000000000000000000000
011011111111010001011101011010110001000000000000000000000000000000
011011111111010100110101000011110100000000000000000000000000000000
010011111111001000110001000110101010100000000000000000000000000000
011011111111000011111101101001001001000000000000000000000000000000
010011111110101101100011000000111110100000000000000000000000000000
011011111111100001101011100001111011100000000000000000000000000000
011011111111000101001101101100110110000000000000000000000000000000
011011111111001001000001001001000110100000000000000000000000000000
010011111111010111010011001100001111100000000000000000000000000000
010011111110001111011101010110011111000000000000000000000000000000
010011111110100111101010011000111001100000000000000000000000000000
010011111111011001100101101100010100100000000000000000000000000000
010011111111001001100100000001010000100000000000000000000000000000
011011111111010000001101001100011110100000000000000000000000000000
010011111111000111001000100001010011000000000000000000000000000000
010011111111000111010000111101111001100000000000000000000000000000
011011111111001101111110011011011110100000000000000000000000000000
010011111110101010101101111000101010000000000000000000000000000000
010011111111010000011110001111110001100000000000000000000000000000
011011111111100111000110110011010001000000000000000000000000000000
010011111111011101111101011001111010000000000000000000000000000000
011011111111011000011101001011000000000000000000000000000000000000
010011111111010100100000001111000001100000000000000000000000000000
011011111110010111001100100100001010000000000000000000000000000000
010011111110110011010010011000111101000000000000000000000000000000
011011111111100010101101101001011010000000000000000000000000000000
011011111111100101100001101101110011000000000000000000000000000000
010011111111000110100101011110111001000000000000000000000000000000
011011111111000010110010000100101101100000000000000000000000000000
010011111111011001010100100100011011000000000000000000000000000000
011011111111001110000100011110100000100000000000000000000000000000
010011111111000110000101100100011001100000000000000000000000000000
010011111110000000100000100010111001000000000000000000000000000000
011011111111000010100000101010001101100000000000000000000000000000
010011111111001110000110101010100100000000000000000000000000000000
010011111111011011000010011010110101000000000000000000000000000000
011011111111011100111110101100100110000000000000000000000000000000
010011111111001101111010100110101111000000000000000000000000000000
011011111111010001001101001011111111100000000000000000000000000000
010011111111100010010010000101111100000000000000000000000000000000
010011111110100011001110111100010100000000000000000000000000000000
011011111111100000001001010100100101000000000000000000000000000000
011011111111101001010101011000111110000000000000000000000000000000
011011111111010001011100011011100001000000000000000000000000000000
011011111111100010101000111001111010000000000000000000000000000000
011011111111000111000011011110000000000000000000000000000000000000
010011111111000110001111010010000000000000000000000000000000000000
010011111111010011110101111000111111100000000000000000000000000000
010011111111011000100011000010001101000000000000000000000000000000
011011111111001100100111110111111010100000000000000000000000000000
011011111111011100011100010100011100000000000000000000000000000000
010011111111010000110111100100111111000000000000000000000000000000
011011111110111101100011000110110100000000000000000000000000000000
010011111111011110111000001101000010000000000000000000000000000000
011011111110110010110000101101011101100000000000000000000000000000
010011111111010110001110111110001000000000000000000000000000000000
010011111110111100000011000101000110000000000000000000000000000000
011011111111001100110111011101101110100000000000000000000000000000
010011111111001100111000101001010111000000000000000000000000000000
011011111111001101100011111000001111000000000000000000000000000000
010011111111011100100001010100000011000000000000000000000000000000
010011111110000011100111100111001100100000000000000000000000000000
011011111111011101010111111011110101100000000000000000000000000000
011011111111010010011111110111111010000000000000000000000000000000
011011111111010001111111110010101011000000000000000000000000000000
010011111110111011010011001001010000100000000000000000000000000000
011011111111000001100101101000000111000000000000000000000000000000
010011111111100011110111101011110111100000000000000000000000000000
010011111110011000001000100100111110000000000000000000000000000000
010011111111000110100100011101101110100000000000000000000000000000
010011111111011001001010000011011110000000000000000000000000000000
011011111111010110110101100000010011000000000000000000000000000000
011011111111001111100100100100001100000000000000000000000000000000
